{
  "version": "1.0",
  "truncation": null,
  "padding": null,
  "added_tokens": [
    {
      "id": 0,
      "content": "[UNK]",
      "single_word": false,
      "lstrip": false,
      "rstrip": false,
      "normalized": false,
      "special": true
    },
    {
      "id": 1,
      "content": "[PAD]",
      "single_word": false,
      "lstrip": false,
      "rstrip": false,
      "normalized": false,
      "special": true
    },
    {
      "id": 2,
      "content": "[BOS]",
      "single_word": false,
      "lstrip": false,
      "rstrip": false,
      "normalized": false,
      "special": true
    },
    {
      "id": 3,
      "content": "[EOS]",
      "single_word": false,
      "lstrip": false,
      "rstrip": false,
      "normalized": false,
      "special": true
    }
  ],
  "normalizer": null,
  "pre_tokenizer": {
    "type": "ByteLevel",
    "add_prefix_space": false,
    "trim_offsets": true,
    "use_regex": true
  },
  "post_processor": null,
  "decoder": {
    "type": "ByteLevel",
    "add_prefix_space": true,
    "trim_offsets": true,
    "use_regex": true
  },
  "model": {
    "type": "BPE",
    "dropout": null,
    "unk_token": "[UNK]",
    "continuing_subword_prefix": null,
    "end_of_word_suffix": null,
    "fuse_unk": false,
    "byte_fallback": false,
    "ignore_merges": false,
    "vocab": {
      "[UNK]": 0,
      "[PAD]": 1,
      "[BOS]": 2,
      "[EOS]": 3,
      "!": 4,
      "$": 5,
      "&": 6,
      "'": 7,
      ",": 8,
      "-": 9,
      ".": 10,
      "3": 11,
      ":": 12,
      ";": 13,
      "?": 14,
      "A": 15,
      "B": 16,
      "C": 17,
      "D": 18,
      "E": 19,
      "F": 20,
      "G": 21,
      "H": 22,
      "I": 23,
      "J": 24,
      "K": 25,
      "L": 26,
      "M": 27,
      "N": 28,
      "O": 29,
      "P": 30,
      "Q": 31,
      "R": 32,
      "S": 33,
      "T": 34,
      "U": 35,
      "V": 36,
      "W": 37,
      "X": 38,
      "Y": 39,
      "Z": 40,
      "a": 41,
      "b": 42,
      "c": 43,
      "d": 44,
      "e": 45,
      "f": 46,
      "g": 47,
      "h": 48,
      "i": 49,
      "j": 50,
      "k": 51,
      "l": 52,
      "m": 53,
      "n": 54,
      "o": 55,
      "p": 56,
      "q": 57,
      "r": 58,
      "s": 59,
      "t": 60,
      "u": 61,
      "v": 62,
      "w": 63,
      "x": 64,
      "y": 65,
      "z": 66,
      "Ċ": 67,
      "Ġ": 68,
      "Ġt": 69,
      "he": 70,
      "Ġa": 71,
      "ou": 72,
      "Ġs": 73,
      "Ġm": 74,
      "in": 75,
      "Ġw": 76,
      "re": 77,
      "ha": 78,
      "nd": 79,
      "Ġthe": 80,
      "Ġb": 81,
      "is": 82,
      "or": 83,
      "Ġf": 84,
      "er": 85,
      "ll": 86,
      "it": 87,
      "on": 88,
      "Ġd": 89,
      "Ġc": 90,
      "es": 91,
      "en": 92,
      "Ġn": 93,
      "Ġl": 94,
      "Ġy": 95,
      "Ġth": 96,
      "ar": 97,
      "Ġh": 98,
      "Ġo": 99,
      "Ġto": 100,
      "Ġyou": 101,
      "Ġp": 102,
      "hat": 103,
      "ĠI": 104,
      "Ġhe": 105,
      "ve": 106,
      "ot": 107,
      "st": 108,
      "Ġand": 109,
      "ow": 110,
      "ing": 111,
      "an": 112,
      "Ġof": 113,
      "om": 114,
      "Ġg": 115,
      "at": 116,
      "Ġbe": 117,
      "se": 118,
      "Ġmy": 119,
      "Ġin": 120,
      "ce": 121,
      "Ġha": 122,
      "le": 123,
      "ay": 124,
      "ld": 125,
      "ir": 126,
      "et": 127,
      "ed": 128,
      "ut": 129,
      "Ġme": 130,
      "im": 131,
      "ith": 132,
      "'s": 133,
      "Ġnot": 134,
      "ch": 135,
      "Ġthat": 136,
      "Ġis": 137,
      "gh": 138,
      "And": 139,
      "Ġfor": 140,
      "ke": 141,
      "Ġu": 142,
      "our": 143,
      "Ġwe": 144,
      "oo": 145,
      "ill": 146,
      "Ġe": 147,
      "her": 148,
      "Ġwith": 149,
      "ent": 150,
      "Ġit": 151,
      "Ġyour": 152,
      "ad": 153,
      "ri": 154,
      "Ġthou": 155,
      "Ġst": 156,
      "'d": 157,
      "Ġk": 158,
      "ome": 159,
      "Ġhis": 160,
      "ght": 161,
      "EN": 162,
      "ord": 163,
      "id": 164,
      "The": 165,
      "as": 166,
      "Ġre": 167,
      "Ġhave": 168,
      "IN": 169,
      "ly": 170,
      "ra": 171,
      "Ġli": 172,
      "Ġhim": 173,
      "ur": 174,
      "Ġthis": 175,
      "al": 176,
      "IO": 177,
      "Ġso": 178,
      "Ġas": 179,
      "Ġde": 180,
      "Ġon": 181,
      "ore": 182,
      "ro": 183,
      "AR": 184,
      "hi": 185,
      "ould": 186,
      "ood": 187,
      "ck": 188,
      "ain": 189,
      "ver": 190,
      "est": 191,
      "Ġthy": 192,
      "Ġsha": 193,
      "ess": 194,
      "ea": 195,
      "Ġdo": 196,
      "Ġwill": 197,
      "am": 198,
      "Ġno": 199,
      "Ġbut": 200,
      "us": 201,
      "and": 202,
      "US": 203,
      "if": 204,
      "Ġse": 205,
      "ge": 206,
      "Th": 207,
      "Ġall": 208,
      "ake": 209,
      "Ġsu": 210,
      "To": 211,
      "Ġher": 212,
      "ru": 213,
      "ion": 214,
      "th": 215,
      "Ġan": 216,
      "ter": 217,
      "ard": 218,
      "Ġlo": 219,
      "han": 220,
      "ell": 221,
      "ear": 222,
      "Ġsp": 223,
      "Ġthee": 224,
      "Ġour": 225,
      "Ġfa": 226,
      "Ġshall": 227,
      "Ġby": 228,
      "UC": 229,
      "il": 230,
      "Ġare": 231,
      "ING": 232,
      "ĠC": 233,
      "rom": 234,
      "Ġne": 235,
      "ho": 236,
      "Ġkn": 237,
      "AN": 238,
      "ĠR": 239,
      "That": 240,
      "Ġv": 241,
      "ER": 242,
      "OR": 243,
      "ast": 244,
      "ct": 245,
      "ous": 246,
      "Ġwhat": 247,
      "ight": 248,
      "Ġsh": 249,
      "ul": 250,
      "ET": 251,
      "Ġ'": 252,
      "ant": 253,
      "ES": 254,
      "Ġup": 255,
      "sel": 256,
      "qu": 257,
      "But": 258,
      "art": 259,
      "Ġgood": 260,
      "row": 261,
      "ine": 262,
      "ath": 263,
      "Ġlord": 264,
      "hich": 265,
      "nt": 266,
      "ust": 267,
      "'ll": 268,
      "one": 269,
      "Ġpr": 270,
      "Ġcom": 271,
      "Ġat": 272,
      "Ġman": 273,
      "What": 274,
      "ĠM": 275,
      "Ġwhe": 276,
      "ĠE": 277,
      "KING": 278,
      "Ġam": 279,
      "end": 280,
      "ic": 281,
      "Ġcon": 282,
      "ble": 283,
      "ry": 284,
      "ong": 285,
      "ie": 286,
      "ive": 287,
      "Ġbl": 288,
      "Ġfrom": 289,
      "ven": 290,
      "ĠG": 291,
      "For": 292,
      "Ġshe": 293,
      "em": 294,
      "Ġgo": 295,
      "are": 296,
      "Ġmore": 297,
      "IC": 298,
      "out": 299,
      "Ġthem": 300,
      "au": 301,
      "Ġwas": 302,
      "oth": 303,
      "other": 304,
      "He": 305,
      "Ġsir": 306,
      "ol": 307,
      "Ġnow": 308,
      "ĠL": 309,
      "Ġhat": 310,
      "ost": 311,
      "Ġif": 312,
      "LO": 313,
      "ind": 314,
      "Ġthere": 315,
      "Ġwould": 316,
      "Ġknow": 317,
      "Ġcan": 318,
      "ers": 319,
      "IUS": 320,
      "ep": 321,
      "self": 322,
      "ARD": 323,
      "ather": 324,
      "fe": 325,
      "ond": 326,
      "res": 327,
      "ate": 328,
      "Ġsay": 329,
      "Ġhere": 330,
      "Ġlove": 331,
      "Ġsw": 332,
      "Ġtheir": 333,
      "Ġbr": 334,
      "pp": 335,
      "Ġor": 336,
      "--": 337,
      "all": 338,
      "ĠS": 339,
      "Ġthan": 340,
      "Ġthen": 341,
      "Ġking": 342,
      "Ġus": 343,
      "ĠO": 344,
      "ĠB": 345,
      "Ġthey": 346,
      "Ġar": 347,
      "od": 348,
      "My": 349,
      "Ġlet": 350,
      "Ġun": 351,
      "ig": 352,
      "Ġwor": 353,
      "ure": 354,
      "ink": 355,
      "ĠH": 356,
      "ort": 357,
      "hy": 358,
      "ĠV": 359,
      "ame": 360,
      "fore": 361,
      "As": 362,
      "Ġmay": 363,
      "el": 364,
      "Ġqu": 365,
      "Ġcome": 366,
      "ook": 367,
      "Whe": 368,
      "ish": 369,
      "LI": 370,
      "Ġwell": 371,
      "KE": 372,
      "ves": 373,
      "Ġj": 374,
      "Ġone": 375,
      "Ġhath": 376,
      "irst": 377,
      "You": 378,
      "Ġmake": 379,
      "reat": 380,
      "ak": 381,
      "gain": 382,
      "Ġmust": 383,
      "ound": 384,
      "ng": 385,
      "Ġgra": 386,
      "Ġwere": 387,
      "Ġho": 388,
      "ci": 389,
      "Ġsee": 390,
      "Ġlike": 391,
      "ue": 392,
      "eak": 393,
      "TIO": 394,
      "Ġshould": 395,
      "ity": 396,
      "Ġpro": 397,
      "ĠP": 398,
      "Ġsa": 399,
      "Ġmad": 400,
      "um": 401,
      "Ġpl": 402,
      "Ġfather": 403,
      "RO": 404,
      "AU": 405,
      "Ġhad": 406,
      "Ġdid": 407,
      "pe": 408,
      "ime": 409,
      "Ġupon": 410,
      "ice": 411,
      "ON": 412,
      "Ġtoo": 413,
      "ence": 414,
      "ĠW": 415,
      "ward": 416,
      "ist": 417,
      "Ġdeath": 418,
      "own": 419,
      "man": 420,
      "ose": 421,
      "Ġen": 422,
      "un": 423,
      "IS": 424,
      "ful": 425,
      "nce": 426,
      "Ġr": 427,
      "Ġpo": 428,
      "Ġspeak": 429,
      "de": 430,
      "entle": 431,
      "io": 432,
      "Ġout": 433,
      "pt": 434,
      "Ġwhich": 435,
      "ICH": 436,
      "Ġfri": 437,
      "OL": 438,
      "DU": 439,
      "Ġagain": 440,
      "DUKE": 441,
      "Ġhow": 442,
      "EL": 443,
      "ick": 444,
      "ĠA": 445,
      "Ġtru": 446,
      "Ġheart": 447,
      "Ġyet": 448,
      "Ġhand": 449,
      "CA": 450,
      "Thou": 451,
      "very": 452,
      "ICHARD": 453,
      "ENTIO": 454,
      "With": 455,
      "ign": 456,
      "Ġsome": 457,
      "ance": 458,
      "Ġwho": 459,
      "Which": 460,
      "If": 461,
      "Ġwhen": 462,
      "ies": 463,
      "Ġmar": 464,
      "ire": 465,
      "Ġmine": 466,
      "Ġhon": 467,
      "har": 468,
      "orn": 469,
      "Ġoff": 470,
      "ince": 471,
      "INC": 472,
      "In": 473,
      "ack": 474,
      "ĠY": 475,
      "Ġson": 476,
      "Ġdis": 477,
      "Ġal": 478,
      "'t": 479,
      "We": 480,
      "uch": 481,
      "wn": 482,
      "Ġhea": 483,
      "First": 484,
      "oy": 485,
      "Ġtime": 486,
      "Ġhear": 487,
      "AB": 488,
      "ec": 489,
      "Ġsuch": 490,
      "ness": 491,
      "LA": 492,
      "Ġbrother": 493,
      "Of": 494,
      "Ġblood": 495,
      "ither": 496,
      "Ġab": 497,
      "UE": 498,
      "Why": 499
    },
    "merges": [
      [
        "Ġ",
        "t"
      ],
      [
        "h",
        "e"
      ],
      [
        "Ġ",
        "a"
      ],
      [
        "o",
        "u"
      ],
      [
        "Ġ",
        "s"
      ],
      [
        "Ġ",
        "m"
      ],
      [
        "i",
        "n"
      ],
      [
        "Ġ",
        "w"
      ],
      [
        "r",
        "e"
      ],
      [
        "h",
        "a"
      ],
      [
        "n",
        "d"
      ],
      [
        "Ġt",
        "he"
      ],
      [
        "Ġ",
        "b"
      ],
      [
        "i",
        "s"
      ],
      [
        "o",
        "r"
      ],
      [
        "Ġ",
        "f"
      ],
      [
        "e",
        "r"
      ],
      [
        "l",
        "l"
      ],
      [
        "i",
        "t"
      ],
      [
        "o",
        "n"
      ],
      [
        "Ġ",
        "d"
      ],
      [
        "Ġ",
        "c"
      ],
      [
        "e",
        "s"
      ],
      [
        "e",
        "n"
      ],
      [
        "Ġ",
        "n"
      ],
      [
        "Ġ",
        "l"
      ],
      [
        "Ġ",
        "y"
      ],
      [
        "Ġt",
        "h"
      ],
      [
        "a",
        "r"
      ],
      [
        "Ġ",
        "h"
      ],
      [
        "Ġ",
        "o"
      ],
      [
        "Ġt",
        "o"
      ],
      [
        "Ġy",
        "ou"
      ],
      [
        "Ġ",
        "p"
      ],
      [
        "ha",
        "t"
      ],
      [
        "Ġ",
        "I"
      ],
      [
        "Ġ",
        "he"
      ],
      [
        "v",
        "e"
      ],
      [
        "o",
        "t"
      ],
      [
        "s",
        "t"
      ],
      [
        "Ġa",
        "nd"
      ],
      [
        "o",
        "w"
      ],
      [
        "in",
        "g"
      ],
      [
        "a",
        "n"
      ],
      [
        "Ġo",
        "f"
      ],
      [
        "o",
        "m"
      ],
      [
        "Ġ",
        "g"
      ],
      [
        "a",
        "t"
      ],
      [
        "Ġb",
        "e"
      ],
      [
        "s",
        "e"
      ],
      [
        "Ġm",
        "y"
      ],
      [
        "Ġ",
        "in"
      ],
      [
        "c",
        "e"
      ],
      [
        "Ġ",
        "ha"
      ],
      [
        "l",
        "e"
      ],
      [
        "a",
        "y"
      ],
      [
        "l",
        "d"
      ],
      [
        "i",
        "r"
      ],
      [
        "e",
        "t"
      ],
      [
        "e",
        "d"
      ],
      [
        "u",
        "t"
      ],
      [
        "Ġm",
        "e"
      ],
      [
        "i",
        "m"
      ],
      [
        "it",
        "h"
      ],
      [
        "'",
        "s"
      ],
      [
        "Ġn",
        "ot"
      ],
      [
        "c",
        "h"
      ],
      [
        "Ġt",
        "hat"
      ],
      [
        "Ġ",
        "is"
      ],
      [
        "g",
        "h"
      ],
      [
        "A",
        "nd"
      ],
      [
        "Ġf",
        "or"
      ],
      [
        "k",
        "e"
      ],
      [
        "Ġ",
        "u"
      ],
      [
        "ou",
        "r"
      ],
      [
        "Ġw",
        "e"
      ],
      [
        "o",
        "o"
      ],
      [
        "i",
        "ll"
      ],
      [
        "Ġ",
        "e"
      ],
      [
        "he",
        "r"
      ],
      [
        "Ġw",
        "ith"
      ],
      [
        "en",
        "t"
      ],
      [
        "Ġ",
        "it"
      ],
      [
        "Ġyou",
        "r"
      ],
      [
        "a",
        "d"
      ],
      [
        "r",
        "i"
      ],
      [
        "Ġth",
        "ou"
      ],
      [
        "Ġs",
        "t"
      ],
      [
        "'",
        "d"
      ],
      [
        "Ġ",
        "k"
      ],
      [
        "om",
        "e"
      ],
      [
        "Ġh",
        "is"
      ],
      [
        "gh",
        "t"
      ],
      [
        "E",
        "N"
      ],
      [
        "or",
        "d"
      ],
      [
        "i",
        "d"
      ],
      [
        "T",
        "he"
      ],
      [
        "a",
        "s"
      ],
      [
        "Ġ",
        "re"
      ],
      [
        "Ġha",
        "ve"
      ],
      [
        "I",
        "N"
      ],
      [
        "l",
        "y"
      ],
      [
        "r",
        "a"
      ],
      [
        "Ġl",
        "i"
      ],
      [
        "Ġh",
        "im"
      ],
      [
        "u",
        "r"
      ],
      [
        "Ġth",
        "is"
      ],
      [
        "a",
        "l"
      ],
      [
        "I",
        "O"
      ],
      [
        "Ġs",
        "o"
      ],
      [
        "Ġa",
        "s"
      ],
      [
        "Ġd",
        "e"
      ],
      [
        "Ġ",
        "on"
      ],
      [
        "o",
        "re"
      ],
      [
        "r",
        "o"
      ],
      [
        "A",
        "R"
      ],
      [
        "h",
        "i"
      ],
      [
        "ou",
        "ld"
      ],
      [
        "oo",
        "d"
      ],
      [
        "c",
        "k"
      ],
      [
        "a",
        "in"
      ],
      [
        "v",
        "er"
      ],
      [
        "es",
        "t"
      ],
      [
        "Ġth",
        "y"
      ],
      [
        "Ġs",
        "ha"
      ],
      [
        "es",
        "s"
      ],
      [
        "e",
        "a"
      ],
      [
        "Ġd",
        "o"
      ],
      [
        "Ġw",
        "ill"
      ],
      [
        "a",
        "m"
      ],
      [
        "Ġn",
        "o"
      ],
      [
        "Ġb",
        "ut"
      ],
      [
        "u",
        "s"
      ],
      [
        "a",
        "nd"
      ],
      [
        "U",
        "S"
      ],
      [
        "i",
        "f"
      ],
      [
        "Ġs",
        "e"
      ],
      [
        "g",
        "e"
      ],
      [
        "T",
        "h"
      ],
      [
        "Ġa",
        "ll"
      ],
      [
        "a",
        "ke"
      ],
      [
        "Ġs",
        "u"
      ],
      [
        "T",
        "o"
      ],
      [
        "Ġhe",
        "r"
      ],
      [
        "r",
        "u"
      ],
      [
        "i",
        "on"
      ],
      [
        "t",
        "h"
      ],
      [
        "Ġa",
        "n"
      ],
      [
        "t",
        "er"
      ],
      [
        "ar",
        "d"
      ],
      [
        "Ġl",
        "o"
      ],
      [
        "ha",
        "n"
      ],
      [
        "e",
        "ll"
      ],
      [
        "e",
        "ar"
      ],
      [
        "Ġs",
        "p"
      ],
      [
        "Ġthe",
        "e"
      ],
      [
        "Ġ",
        "our"
      ],
      [
        "Ġf",
        "a"
      ],
      [
        "Ġsha",
        "ll"
      ],
      [
        "Ġb",
        "y"
      ],
      [
        "U",
        "C"
      ],
      [
        "i",
        "l"
      ],
      [
        "Ġa",
        "re"
      ],
      [
        "IN",
        "G"
      ],
      [
        "Ġ",
        "C"
      ],
      [
        "r",
        "om"
      ],
      [
        "Ġn",
        "e"
      ],
      [
        "h",
        "o"
      ],
      [
        "Ġk",
        "n"
      ],
      [
        "A",
        "N"
      ],
      [
        "Ġ",
        "R"
      ],
      [
        "T",
        "hat"
      ],
      [
        "Ġ",
        "v"
      ],
      [
        "E",
        "R"
      ],
      [
        "O",
        "R"
      ],
      [
        "a",
        "st"
      ],
      [
        "c",
        "t"
      ],
      [
        "ou",
        "s"
      ],
      [
        "Ġw",
        "hat"
      ],
      [
        "i",
        "ght"
      ],
      [
        "Ġs",
        "h"
      ],
      [
        "u",
        "l"
      ],
      [
        "E",
        "T"
      ],
      [
        "Ġ",
        "'"
      ],
      [
        "an",
        "t"
      ],
      [
        "E",
        "S"
      ],
      [
        "Ġu",
        "p"
      ],
      [
        "se",
        "l"
      ],
      [
        "q",
        "u"
      ],
      [
        "B",
        "ut"
      ],
      [
        "ar",
        "t"
      ],
      [
        "Ġg",
        "ood"
      ],
      [
        "r",
        "ow"
      ],
      [
        "in",
        "e"
      ],
      [
        "at",
        "h"
      ],
      [
        "Ġl",
        "ord"
      ],
      [
        "hi",
        "ch"
      ],
      [
        "n",
        "t"
      ],
      [
        "u",
        "st"
      ],
      [
        "'",
        "ll"
      ],
      [
        "on",
        "e"
      ],
      [
        "Ġp",
        "r"
      ],
      [
        "Ġc",
        "om"
      ],
      [
        "Ġa",
        "t"
      ],
      [
        "Ġm",
        "an"
      ],
      [
        "W",
        "hat"
      ],
      [
        "Ġ",
        "M"
      ],
      [
        "Ġw",
        "he"
      ],
      [
        "Ġ",
        "E"
      ],
      [
        "K",
        "ING"
      ],
      [
        "Ġa",
        "m"
      ],
      [
        "e",
        "nd"
      ],
      [
        "i",
        "c"
      ],
      [
        "Ġc",
        "on"
      ],
      [
        "b",
        "le"
      ],
      [
        "r",
        "y"
      ],
      [
        "on",
        "g"
      ],
      [
        "i",
        "e"
      ],
      [
        "i",
        "ve"
      ],
      [
        "Ġb",
        "l"
      ],
      [
        "Ġf",
        "rom"
      ],
      [
        "v",
        "en"
      ],
      [
        "Ġ",
        "G"
      ],
      [
        "F",
        "or"
      ],
      [
        "Ġs",
        "he"
      ],
      [
        "e",
        "m"
      ],
      [
        "Ġg",
        "o"
      ],
      [
        "a",
        "re"
      ],
      [
        "Ġm",
        "ore"
      ],
      [
        "I",
        "C"
      ],
      [
        "ou",
        "t"
      ],
      [
        "Ġthe",
        "m"
      ],
      [
        "a",
        "u"
      ],
      [
        "Ġw",
        "as"
      ],
      [
        "ot",
        "h"
      ],
      [
        "ot",
        "her"
      ],
      [
        "H",
        "e"
      ],
      [
        "Ġs",
        "ir"
      ],
      [
        "o",
        "l"
      ],
      [
        "Ġn",
        "ow"
      ],
      [
        "Ġ",
        "L"
      ],
      [
        "Ġ",
        "hat"
      ],
      [
        "o",
        "st"
      ],
      [
        "Ġ",
        "if"
      ],
      [
        "L",
        "O"
      ],
      [
        "in",
        "d"
      ],
      [
        "Ġthe",
        "re"
      ],
      [
        "Ġw",
        "ould"
      ],
      [
        "Ġkn",
        "ow"
      ],
      [
        "Ġc",
        "an"
      ],
      [
        "er",
        "s"
      ],
      [
        "I",
        "US"
      ],
      [
        "e",
        "p"
      ],
      [
        "sel",
        "f"
      ],
      [
        "AR",
        "D"
      ],
      [
        "at",
        "her"
      ],
      [
        "f",
        "e"
      ],
      [
        "o",
        "nd"
      ],
      [
        "re",
        "s"
      ],
      [
        "at",
        "e"
      ],
      [
        "Ġs",
        "ay"
      ],
      [
        "Ġhe",
        "re"
      ],
      [
        "Ġlo",
        "ve"
      ],
      [
        "Ġs",
        "w"
      ],
      [
        "Ġthe",
        "ir"
      ],
      [
        "Ġb",
        "r"
      ],
      [
        "p",
        "p"
      ],
      [
        "Ġ",
        "or"
      ],
      [
        "-",
        "-"
      ],
      [
        "a",
        "ll"
      ],
      [
        "Ġ",
        "S"
      ],
      [
        "Ġt",
        "han"
      ],
      [
        "Ġthe",
        "n"
      ],
      [
        "Ġk",
        "ing"
      ],
      [
        "Ġu",
        "s"
      ],
      [
        "Ġ",
        "O"
      ],
      [
        "Ġ",
        "B"
      ],
      [
        "Ġthe",
        "y"
      ],
      [
        "Ġa",
        "r"
      ],
      [
        "o",
        "d"
      ],
      [
        "M",
        "y"
      ],
      [
        "Ġl",
        "et"
      ],
      [
        "Ġu",
        "n"
      ],
      [
        "i",
        "g"
      ],
      [
        "Ġw",
        "or"
      ],
      [
        "u",
        "re"
      ],
      [
        "in",
        "k"
      ],
      [
        "Ġ",
        "H"
      ],
      [
        "or",
        "t"
      ],
      [
        "h",
        "y"
      ],
      [
        "Ġ",
        "V"
      ],
      [
        "am",
        "e"
      ],
      [
        "f",
        "ore"
      ],
      [
        "A",
        "s"
      ],
      [
        "Ġm",
        "ay"
      ],
      [
        "e",
        "l"
      ],
      [
        "Ġ",
        "qu"
      ],
      [
        "Ġc",
        "ome"
      ],
      [
        "oo",
        "k"
      ],
      [
        "W",
        "he"
      ],
      [
        "is",
        "h"
      ],
      [
        "L",
        "I"
      ],
      [
        "Ġwe",
        "ll"
      ],
      [
        "K",
        "E"
      ],
      [
        "v",
        "es"
      ],
      [
        "Ġ",
        "j"
      ],
      [
        "Ġon",
        "e"
      ],
      [
        "Ġhat",
        "h"
      ],
      [
        "ir",
        "st"
      ],
      [
        "Y",
        "ou"
      ],
      [
        "Ġm",
        "ake"
      ],
      [
        "re",
        "at"
      ],
      [
        "a",
        "k"
      ],
      [
        "g",
        "ain"
      ],
      [
        "Ġm",
        "ust"
      ],
      [
        "ou",
        "nd"
      ],
      [
        "n",
        "g"
      ],
      [
        "Ġg",
        "ra"
      ],
      [
        "Ġwe",
        "re"
      ],
      [
        "Ġh",
        "o"
      ],
      [
        "c",
        "i"
      ],
      [
        "Ġse",
        "e"
      ],
      [
        "Ġli",
        "ke"
      ],
      [
        "u",
        "e"
      ],
      [
        "ea",
        "k"
      ],
      [
        "T",
        "IO"
      ],
      [
        "Ġsh",
        "ould"
      ],
      [
        "it",
        "y"
      ],
      [
        "Ġp",
        "ro"
      ],
      [
        "Ġ",
        "P"
      ],
      [
        "Ġs",
        "a"
      ],
      [
        "Ġm",
        "ad"
      ],
      [
        "u",
        "m"
      ],
      [
        "Ġp",
        "l"
      ],
      [
        "Ġf",
        "ather"
      ],
      [
        "R",
        "O"
      ],
      [
        "A",
        "U"
      ],
      [
        "Ġha",
        "d"
      ],
      [
        "Ġd",
        "id"
      ],
      [
        "p",
        "e"
      ],
      [
        "im",
        "e"
      ],
      [
        "Ġup",
        "on"
      ],
      [
        "i",
        "ce"
      ],
      [
        "O",
        "N"
      ],
      [
        "Ġto",
        "o"
      ],
      [
        "en",
        "ce"
      ],
      [
        "Ġ",
        "W"
      ],
      [
        "w",
        "ard"
      ],
      [
        "is",
        "t"
      ],
      [
        "Ġde",
        "ath"
      ],
      [
        "ow",
        "n"
      ],
      [
        "m",
        "an"
      ],
      [
        "o",
        "se"
      ],
      [
        "Ġ",
        "en"
      ],
      [
        "u",
        "n"
      ],
      [
        "I",
        "S"
      ],
      [
        "f",
        "ul"
      ],
      [
        "n",
        "ce"
      ],
      [
        "Ġ",
        "r"
      ],
      [
        "Ġp",
        "o"
      ],
      [
        "Ġsp",
        "eak"
      ],
      [
        "d",
        "e"
      ],
      [
        "ent",
        "le"
      ],
      [
        "i",
        "o"
      ],
      [
        "Ġ",
        "out"
      ],
      [
        "p",
        "t"
      ],
      [
        "Ġw",
        "hich"
      ],
      [
        "IC",
        "H"
      ],
      [
        "Ġf",
        "ri"
      ],
      [
        "O",
        "L"
      ],
      [
        "D",
        "U"
      ],
      [
        "Ġa",
        "gain"
      ],
      [
        "DU",
        "KE"
      ],
      [
        "Ġh",
        "ow"
      ],
      [
        "E",
        "L"
      ],
      [
        "i",
        "ck"
      ],
      [
        "Ġ",
        "A"
      ],
      [
        "Ġt",
        "ru"
      ],
      [
        "Ġhe",
        "art"
      ],
      [
        "Ġy",
        "et"
      ],
      [
        "Ġha",
        "nd"
      ],
      [
        "C",
        "A"
      ],
      [
        "Th",
        "ou"
      ],
      [
        "ver",
        "y"
      ],
      [
        "ICH",
        "ARD"
      ],
      [
        "EN",
        "TIO"
      ],
      [
        "W",
        "ith"
      ],
      [
        "ig",
        "n"
      ],
      [
        "Ġs",
        "ome"
      ],
      [
        "an",
        "ce"
      ],
      [
        "Ġw",
        "ho"
      ],
      [
        "W",
        "hich"
      ],
      [
        "I",
        "f"
      ],
      [
        "Ġwhe",
        "n"
      ],
      [
        "i",
        "es"
      ],
      [
        "Ġm",
        "ar"
      ],
      [
        "i",
        "re"
      ],
      [
        "Ġm",
        "ine"
      ],
      [
        "Ġh",
        "on"
      ],
      [
        "ha",
        "r"
      ],
      [
        "or",
        "n"
      ],
      [
        "Ġof",
        "f"
      ],
      [
        "in",
        "ce"
      ],
      [
        "IN",
        "C"
      ],
      [
        "I",
        "n"
      ],
      [
        "a",
        "ck"
      ],
      [
        "Ġ",
        "Y"
      ],
      [
        "Ġs",
        "on"
      ],
      [
        "Ġd",
        "is"
      ],
      [
        "Ġa",
        "l"
      ],
      [
        "'",
        "t"
      ],
      [
        "W",
        "e"
      ],
      [
        "u",
        "ch"
      ],
      [
        "w",
        "n"
      ],
      [
        "Ġhe",
        "a"
      ],
      [
        "F",
        "irst"
      ],
      [
        "o",
        "y"
      ],
      [
        "Ġt",
        "ime"
      ],
      [
        "Ġhe",
        "ar"
      ],
      [
        "A",
        "B"
      ],
      [
        "e",
        "c"
      ],
      [
        "Ġsu",
        "ch"
      ],
      [
        "n",
        "ess"
      ],
      [
        "L",
        "A"
      ],
      [
        "Ġbr",
        "other"
      ],
      [
        "O",
        "f"
      ],
      [
        "Ġbl",
        "ood"
      ],
      [
        "it",
        "her"
      ],
      [
        "Ġa",
        "b"
      ],
      [
        "U",
        "E"
      ],
      [
        "W",
        "hy"
      ]
    ]
  }
}